{"<pad>": 0, "<bos>": 1, "<sep>": 2, "<eot>": 3, "=": 4, ":": 5, ">": 6, "PASS": 7, "<": 8, "(": 9, ")": 10, "NORTH": 11, "S": 12, "H": 13, "AUCTION": 14, "BID": 15, "C": 16, "D": 17, "EXPLANATION": 18, "HAND": 19, "RULE": 20, "STATE": 21, "bos": 22, "dealer": 23, "eot": 24, "seat": 25, "turn": 26, "vuln": 27, "1C": 28, "hcp": 29, "3": 30, "None": 31, "'": 32, "2": 33, "1S": 34, "True": 35, "X": 36, "0": 37, "1": 38, "4": 39, "EAST": 40, "spade_len": 41, "3NT": 42, "SOUTH": 43, "1H": 44, "8": 45, "WEST": 46, "is_competitive": 47, "heart_len": 48, "-": 49, "5": 50, "6": 51, ",": 52, "2NT": 53, "partner_last_call": 54, "2S": 55, "1NT": 56, "12": 57, "is_opening": 58, "COMP_1S_OVERCALL": 59, "is_balanced": 60, "10": 61, "1D": 62, "4NT": 63, "7": 64, "2H": 65, "[": 66, "]": 67, "in": 68, "11": 69, "9": 70, "15": 71, "NO_C_WITH_MAJOR_HEA": 72, "COMP_TAKEOUT_DBL": 73, "5NT": 74, "5D": 75, "2D": 76, "21": 77, "False": 78, "club_len": 79, "14": 80, "5H": 81, "K": 82, "A": 83, "last_bid_strain": 84, "Q": 85, "6NT": 86, "my_last_call": 87, "T": 88, "4H": 89, "R_RESP_3NT": 90, "FW_TKO_VS_S": 91, "17": 92, "3S": 93, "6D": 94, "4S": 95, "64": 96, "92": 97, "95": 98, "FW_OVERCALL_1H": 99, "R_1NT": 100, "opp_last_call": 101, "82": 102, "98": 103, "diamond_len": 104, "63": 105, "96": 106, "NONE": 107, "42": 108, "76": 109, "FW_2NT_DECLINE": 110, "QT": 111, "K3": 112, "NO_C_WITH_MAJOR_SPA": 113, "T8": 114, "T9": 115, "ace_count": 116, "54": 117, "73": 118, "QJ": 119, "R_RESP_2S": 120, "R_WEAK_2S": 121, "13": 122, "32": 123, "J7": 124, "R_1C_balanced": 125, "52": 126, "5C": 127, "JT": 128, "Q9": 129, "T5": 130, "A8": 131, "A9": 132, "J2": 133, "J6": 134, "J8": 135, "KJ3": 136, "Q2": 137, "Q5": 138, "65": 139, "6H": 140, "84": 141, "97": 142, "A97": 143, "T2": 144, "43": 145, "86": 146, "862": 147, "AK": 148, "AQ4": 149, "AT": 150, "COMP_BALANCING_1NT": 151, "J": 152, "K6": 153, "KQ": 154, "Q53": 155, "Q6": 156, "R_1H": 157, "T95": 158, "is_balancing": 159, "!": 160, "543": 161, "AK8": 162, "K42": 163, "K9": 164, "R_WEAK_2H": 165, "T3": 166, "T92": 167, "5S": 168, "632": 169, "842": 170, "85": 171, "A7": 172, "AJ": 173, "KJ4": 174, "Q8": 175, "QJ6": 176, "T7": 177, "X_RESP_2NT": 178, "74": 179, "A4": 180, "A5": 181, "AK6": 182, "AK9": 183, "FW_2NT_FORCE_S": 184, "J3": 185, "K4": 186, "K5": 187, "K7": 188, "R_1C_unbalanced": 189, "T654": 190, "T72": 191, "3D": 192, "53": 193, "75": 194, "975": 195, "J9": 196, "K2": 197, "KT": 198, "Q3": 199, "Q82": 200, "T4": 201, "3H": 202, "6C": 203, "865": 204, "94": 205, "963": 206, "983": 207, "AQ": 208, "K75": 209, "K8": 210, "KJ5": 211, "KT3": 212, "Q65": 213, "Q86": 214, "T94": 215, "16": 216, "874": 217, "962": 218, "A54": 219, "A64": 220, "ASK_4NT_ACES": 221, "J65": 222, "J74": 223, "J87": 224, "Q32": 225, "QJ5": 226, "R_1S": 227, "T6": 228, "2C": 229, "643": 230, "72": 231, "853": 232, "93": 233, "974": 234, "J4": 235, "J5": 236, "J97": 237, "JT3": 238, "JT7": 239, "K53": 240, "K64": 241, "KQT": 242, "MC_RESP_2D_OVER_1C": 243, "Q7": 244, "Q73": 245, "Q75": 246, "QT4": 247, "R_RESP_2H": 248, "T93": 249, "62": 250, "654": 251, "752": 252, "765": 253, "83": 254, "976": 255, "A2": 256, "A72": 257, "A75": 258, "AK43": 259, "AKJ6": 260, "AKT": 261, "AQ2": 262, "AQJ5": 263, "AT6": 264, "AT9": 265, "J62": 266, "J652": 267, "J72": 268, "J92": 269, "J96": 270, "KJ": 271, "KQT8": 272, "Q4": 273, "QJ2": 274, "QJ9": 275, "R_1D": 276, "T52": 277, "T98": 278, "97652": 279, "986": 280, "A53": 281, "A83": 282, "A873": 283, "A985": 284, "AJ43": 285, "AJ6": 286, "AJT": 287, "AQ76": 288, "J752": 289, "KQ82": 290, "QJT8": 291, "QT9": 292, "QT95": 293, "T65": 294, "T84": 295, "753": 296, "764": 297, "852": 298, "863": 299, "873": 300, "8754": 301, "A32": 302, "A92": 303, "A93": 304, "AJ2": 305, "AJ5": 306, "AK4": 307, "AKJ": 308, "AKT9": 309, "AQT": 310, "AT4": 311, "AT53": 312, "FW_TKO_VS_H": 313, "GAME_ACCEPT_4H_OVER_3H": 314, "J54": 315, "J75": 316, "J754": 317, "J86": 318, "K43": 319, "K54": 320, "K63": 321, "K65": 322, "K82": 323, "K83": 324, "K84": 325, "KQ6": 326, "KQJT": 327, "KT2": 328, "KT86": 329, "Q52": 330, "Q87": 331, "Q93": 332, "QT3": 333, "R_1C_STRONG_BAL": 334, "T76": 335, "T85": 336, "T875": 337, "642": 338, "6543": 339, "743": 340, "7652": 341, "854": 342, "87": 343, "943": 344, "953": 345, "98752": 346, "A42": 347, "A542": 348, "A6": 349, "A62": 350, "AJ53": 351, "AJ8": 352, "AJ87": 353, "AK5": 354, "AK963": 355, "AQ74": 356, "AQJ": 357, "ASK_5NT_KINGS": 358, "AT8": 359, "J73": 360, "J742": 361, "J93": 362, "J9752": 363, "JT84": 364, "JT97": 365, "K74": 366, "K754": 367, "K96": 368, "KJ7": 369, "KJ82": 370, "KJ93": 371, "KQ9": 372, "KT92": 373, "PLACE_6NT_AFTER_K_ASK": 374, "Q54": 375, "Q62": 376, "Q764": 377, "Q9643": 378, "Q97": 379, "QJ83": 380, "QT7": 381, "T43": 382, "T75": 383, "T965": 384, "king_count": 385, "732": 386, "7642": 387, "872": 388, "875": 389, "964": 390, "965": 391, "972": 392, "984": 393, "9842": 394, "A43": 395, "A643": 396, "A74": 397, "A82": 398, "A84": 399, "A842": 400, "A86": 401, "A95": 402, "AJ3": 403, "AJ72": 404, "AJT8": 405, "AK3": 406, "AK65": 407, "AK76": 408, "AKJ6532": 409, "AKQ3": 410, "AQ3": 411, "AQ7": 412, "AQ86": 413, "AQJ92": 414, "AQT73": 415, "AT3": 416, "AT83": 417, "AT96": 418, "BW_RESP_D": 419, "GAME_ACCEPT_4S_OVER_3S": 420, "J76": 421, "J83": 422, "J84": 423, "J872": 424, "JT4": 425, "JT72": 426, "K852": 427, "K87": 428, "K932": 429, "K94": 430, "K97": 431, "K98": 432, "KJ32": 433, "KJ73": 434, "KJ94": 435, "KJT8": 436, "KQ642": 437, "KQ7": 438, "KQ982": 439, "KQJ": 440, "KQJ3": 441, "KT4": 442, "KT764": 443, "Q654": 444, "Q74": 445, "Q84": 446, "Q843": 447, "Q8642": 448, "Q876": 449, "Q932": 450, "Q953": 451, "Q954": 452, "QT8": 453, "T42": 454, "T542": 455, "T632": 456, "T653": 457, "T765": 458, "T82": 459, "T872": 460, "T873": 461, "T874": 462, "T9842": 463, "542": 464, "653": 465, "763": 466, "832": 467, "932": 468, "942": 469, "98762": 470, "A3": 471, "A432": 472, "A52": 473, "A832": 474, "A864": 475, "A872": 476, "A8742": 477, "A96": 478, "AJ32": 479, "AJ84": 480, "AJT42": 481, "AJT94": 482, "AK53": 483, "AK54": 484, "AK86": 485, "AK872": 486, "AK952": 487, "AKJ8": 488, "AKQ": 489, "AKQJ7": 490, "AQ6": 491, "AQ8": 492, "AQ87": 493, "AQ953": 494, "AQJ84": 495, "AQT94": 496, "AT2": 497, "AT86": 498, "AT87": 499, "FW_2NT_FORCE_H": 500, "J32": 501, "J63": 502, "J653": 503, "J743": 504, "J94": 505, "J95": 506, "J9543": 507, "J974": 508, "J98": 509, "J983": 510, "JT52": 511, "JT65": 512, "JT86": 513, "K653": 514, "K654": 515, "K6543": 516, "K72": 517, "K76": 518, "K875": 519, "K93": 520, "K95": 521, "K984": 522, "KJ54": 523, "KJ86": 524, "KJT92": 525, "KQ3": 526, "KQ52": 527, "KQ53": 528, "KQ6542": 529, "KQ87": 530, "KQJ63": 531, "KQJ85": 532, "KQT6": 533, "KT6": 534, "KT98": 535, "Q542": 536, "Q72": 537, "Q763": 538, "Q83": 539, "Q96": 540, "Q982": 541, "QJ54": 542, "QJ63": 543, "QJ74": 544, "QJ76": 545, "QJT": 546, "QT52": 547, "SELF_REBID_3S": 548, "T532": 549, "T63": 550, "T64": 551, "T74": 552, "T743": 553, "T83": 554, "T862": 555, "T876": 556, "T96": 557, "T97": 558, "T982": 559, "432": 560, "652": 561, "742": 562, "762": 563, "8732": 564, "9654": 565, "973": 566, "9732": 567, "9843": 568, "9863": 569, "987": 570, "98743": 571, "A742": 572, "A76": 573, "A764": 574, "A76432": 575, "A862": 576, "A94": 577, "A973": 578, "A984": 579, "AJ542": 580, "AJ7": 581, "AJ76": 582, "AJ95": 583, "AJT4": 584, "AK7": 585, "AK75": 586, "AK865": 587, "AKJ987": 588, "AKQ2": 589, "AKQJ": 590, "AKQJ74": 591, "AKQT85": 592, "AKT6": 593, "AQ62": 594, "AQ743": 595, "AQ9": 596, "AQ93": 597, "AQ963": 598, "AQJ52": 599, "AQJ6": 600, "AQJ8": 601, "AQJ972": 602, "AQJT84": 603, "AQT74": 604, "AT32": 605, "AT962": 606, "AT98": 607, "GAME_ACCEPT_3NT_OVER_2NT": 608, "J43": 609, "J853": 610, "J854": 611, "J864": 612, "J965": 613, "JT2": 614, "JT6": 615, "JT73": 616, "JT8": 617, "JT85": 618, "JT96": 619, "JT963": 620, "JT965432": 621, "K32": 622, "K52": 623, "K765": 624, "K8732": 625, "K972": 626, "K986": 627, "KJ2": 628, "KJ6": 629, "KJ8": 630, "KJ8752": 631, "KJ95": 632, "KJT": 633, "KJT3": 634, "KJT987": 635, "KQ43": 636, "KQ853": 637, "KQ92": 638, "KQJ832": 639, "KQJT87": 640, "KQT63": 641, "KT642": 642, "KT65": 643, "KT93": 644, "KT94": 645, "KT942": 646, "KW_RESP_1_6D": 647, "Q42": 648, "Q43": 649, "Q652": 650, "Q7542": 651, "Q76": 652, "Q872": 653, "Q9432": 654, "Q963": 655, "Q98": 656, "Q983": 657, "QJ543": 658, "QJ7": 659, "QJ832": 660, "QJ94": 661, "QJ973": 662, "QJ9754": 663, "QJ976": 664, "QJT763": 665, "QT2": 666, "QT32": 667, "QT42": 668, "QT62": 669, "QT65": 670, "QT72": 671, "QT742": 672, "QT76": 673, "QT87": 674, "QT875": 675, "QT93": 676, "R_1D_STRONG_BAL": 677, "T53": 678, "T843": 679, "T863": 680, "T86532": 681, "T8743": 682, "T8753": 683, "T932": 684, "T975432": 685, "T9862": 686, "T9873": 687, "X_LIFT_3D": 688, "532": 689, "754": 690, "7542": 691, "8642": 692, "8652": 693, "8654": 694, "8742": 695, "8743": 696, "876": 697, "87654": 698, "9532": 699, "954": 700, "9643": 701, "96532": 702, "97632": 703, "9862": 704, "98732": 705, "9876": 706, "A65": 707, "A652": 708, "A653": 709, "A654": 710, "A73": 711, "A753": 712, "A7654": 713, "A8432": 714, "A85": 715, "A863": 716, "A865": 717, "A8652": 718, "A87": 719, "A8743": 720, "A8754": 721, "A964": 722, "A9642": 723, "A9754": 724, "A98": 725, "A982": 726, "A9842": 727, "A987": 728, "AJ432": 729, "AJ63": 730, "AJ642": 731, "AJ65": 732, "AJ6543": 733, "AJ82": 734, "AJ943": 735, "AJT6": 736, "AK42": 737, "AK52": 738, "AK62": 739, "AK8762": 740, "AK964": 741, "AKJ764": 742, "AKJ83": 743, "AKJ95": 744, "AKJT5": 745, "AKQ5": 746, "AKQ8": 747, "AKQ962": 748, "AKQJT3": 749, "AKQT5": 750, "AKQT6": 751, "AKT4": 752, "AKT52": 753, "AKT65": 754, "AKT84": 755, "AKT842": 756, "AKT94": 757, "AQ5": 758, "AQ543": 759, "AQ64": 760, "AQ73": 761, "AQ754": 762, "AQ83": 763, "AQ843": 764, "AQ874": 765, "AQ876": 766, "AQ9432": 767, "AQJ43": 768, "AQJ652": 769, "AQJ86": 770, "AQT7": 771, "AQT765": 772, "AQT82": 773, "AT5": 774, "AT63": 775, "AT82": 776, "AT92": 777, "AT952": 778, "AT9654": 779, "BW_RESP_C": 780, "BW_RESP_H": 781, "J42": 782, "J52": 783, "J53": 784, "J753": 785, "J82": 786, "J85": 787, "J8754": 788, "J953": 789, "J963": 790, "J972": 791, "JT5": 792, "JT54": 793, "JT853": 794, "JT873": 795, "JT932": 796, "JT94": 797, "K732": 798, "K742": 799, "K743": 800, "K752": 801, "K843": 802, "K85432": 803, "K953": 804, "K973": 805, "K975": 806, "K976": 807, "K98764": 808, "KJ52": 809, "KJ732": 810, "KJ75": 811, "KJ754": 812, "KJ7632": 813, "KJ764": 814, "KJ876": 815, "KJ9": 816, "KJ9753": 817, "KJ9832": 818, "KJT5": 819, "KJT6": 820, "KJT86": 821, "KJT87532": 822, "KJT95": 823, "KJT984": 824, "KQ4": 825, "KQ653": 826, "KQ7653": 827, "KQ8": 828, "KQ86": 829, "KQ94": 830, "KQ95": 831, "KQ97": 832, "KQ9863": 833, "KQJ2": 834, "KQJ65": 835, "KQJ876": 836, "KQJ986": 837, "KQJT2": 838, "KQT984": 839, "KT54": 840, "KT75": 841, "KT862": 842, "KT87": 843, "KT8754": 844, "KT932": 845, "KT95": 846, "KT986": 847, "Q432": 848, "Q63": 849, "Q64": 850, "Q743": 851, "Q752": 852, "Q842": 853, "Q86432": 854, "Q875": 855, "Q92": 856, "Q95": 857, "Q974": 858, "Q9752": 859, "Q98532": 860, "QJ43": 861, "QJ65": 862, "QJ7632": 863, "QJ82": 864, "QJ85": 865, "QJ932": 866, "QJ952": 867, "QJT3": 868, "QJT5": 869, "QJT7": 870, "QJT965": 871, "QT5": 872, "QT6": 873, "QT654": 874, "QT73": 875, "QT83": 876, "QT963": 877, "SELF_REBID_2S": 878, "SIGNOFF_5NT_NOACE": 879, "T742": 880, "T762": 881, "T852": 882, "T854": 883, "T86": 884, "T942": 885, "T9432": 886, "T952": 887, "T954": 888, "T9642": 889, "T97643": 890, "T9843": 891, "T9876": 892, "20": 893, "6432": 894, "7532": 895, "76432": 896, "7654": 897, "76543": 898, "843": 899, "8542": 900, "8632": 901, "8753": 902, "87542": 903, "87632": 904, "9432": 905, "9543": 906, "9632": 907, "9653": 908, "97432": 909, "9752": 910, "9753": 911, "97532": 912, "9763": 913, "9764": 914, "976432": 915, "9765": 916, "97653": 917, "97654": 918, "982": 919, "9832": 920, "9852": 921, "A632": 922, "A732": 923, "A743": 924, "A752": 925, "A7643": 926, "A853": 927, "A8532": 928, "A854": 929, "A8632": 930, "A8642": 931, "A87432": 932, "A952": 933, "A953": 934, "A962": 935, "A9742": 936, "A9854": 937, "A9872": 938, "AJ654": 939, "AJ832": 940, "AJ8743": 941, "AJ8752": 942, "AJ9": 943, "AJ92": 944, "AJ974": 945, "AJ975": 946, "AJ982": 947, "AJ983": 948, "AJT62": 949, "AJT65": 950, "AJT843": 951, "AJT865": 952, "AJT875": 953, "AJT983": 954, "AK2": 955, "AK32": 956, "AK532": 957, "AK63": 958, "AK743": 959, "AK765": 960, "AK83": 961, "AK85": 962, "AK854": 963, "AK87": 964, "AK942": 965, "AK96": 966, "AK9842": 967, "AKJ5": 968, "AKJ54": 969, "AKJ7": 970, "AKJ9": 971, "AKJ93": 972, "AKJT3": 973, "AKJT9743": 974, "AKQ4": 975, "AKQ43": 976, "AKQ54": 977, "AKQ7": 978, "AKQ84": 979, "AKQ863": 980, "AKQ9": 981, "AKQ93": 982, "AKQJ5": 983, "AKQJ862": 984, "AKQJT93": 985, "AKQT": 986, "AKT2": 987, "AKT54": 988, "AKT7653": 989, "AKT8": 990, "AKT843": 991, "AKT87": 992, "AKT95": 993, "AQ632": 994, "AQ642": 995, "AQ752": 996, "AQ7643": 997, "AQ76432": 998, "AQ84": 999, "AQ854": 1000, "AQ94": 1001, "AQ9542": 1002, "AQ974": 1003, "AQ97543": 1004, "AQ9852": 1005, "AQ9853": 1006, "AQ98752": 1007, "AQJ64": 1008, "AQJ65": 1009, "AQJ73": 1010, "AQJ9": 1011, "AQJ9543": 1012, "AQJT3": 1013, "AQJT9": 1014, "AQT2": 1015, "AQT4": 1016, "AQT5": 1017, "AQT632": 1018, "AQT652": 1019, "AQT72": 1020, "AQT842": 1021, "AQT95": 1022, "AQT97654": 1023, "AT542": 1024, "AT65": 1025, "AT654": 1026, "AT73": 1027, "AT754": 1028, "AT76": 1029, "AT874": 1030, "AT93": 1031, "AT943": 1032, "AT96432": 1033, "AT973": 1034, "AT985": 1035, "J532": 1036, "J543": 1037, "J5432": 1038, "J64": 1039, "J765": 1040, "J843": 1041, "J8532": 1042, "J862": 1043, "J865": 1044, "J8652": 1045, "J873": 1046, "J876": 1047, "J932": 1048, "J943": 1049, "J954": 1050, "J964": 1051, "J973": 1052, "J9754": 1053, "J97543": 1054, "J97652": 1055, "J9842": 1056, "J9852": 1057, "J9854": 1058, "J9864": 1059, "JT652": 1060, "JT74": 1061, "JT76": 1062, "JT762": 1063, "JT83": 1064, "JT854": 1065, "JT86432": 1066, "JT8743": 1067, "JT875": 1068, "JT9432": 1069, "JT95": 1070, "JT9542": 1071, "JT9543": 1072, "K532": 1073, "K542": 1074, "K642": 1075, "K73": 1076, "K762": 1077, "K7632": 1078, "K7653": 1079, "K76532": 1080, "K8542": 1081, "K86": 1082, "K864": 1083, "K8763": 1084, "K9532": 1085, "K9543": 1086, "K964": 1087, "K965": 1088, "K9653": 1089, "K97542": 1090, "K982": 1091, "K9864": 1092, "K98643": 1093, "K986432": 1094, "KJ42": 1095, "KJ542": 1096, "KJ543": 1097, "KJ62": 1098, "KJ654": 1099, "KJ753": 1100, "KJ85": 1101, "KJ853": 1102, "KJ865": 1103, "KJ87": 1104, "KJ874": 1105, "KJ8754": 1106, "KJ96": 1107, "KJ9743": 1108, "KJ982": 1109, "KJ98763": 1110, "KJT632": 1111, "KJT832": 1112, "KJT87": 1113, "KJT98": 1114, "KQ2": 1115, "KQ32": 1116, "KQ5": 1117, "KQ54": 1118, "KQ543": 1119, "KQ62": 1120, "KQ632": 1121, "KQ6432": 1122, "KQ65": 1123, "KQ72": 1124, "KQ862": 1125, "KQ864": 1126, "KQ872": 1127, "KQ93": 1128, "KQ952": 1129, "KQ9543": 1130, "KQ962": 1131, "KQ965": 1132, "KQJ53": 1133, "KQJ543": 1134, "KQJ64": 1135, "KQJ73": 1136, "KQJ865": 1137, "KQJ872": 1138, "KQJT653": 1139, "KQT2": 1140, "KQT3": 1141, "KQT7": 1142, "KQT76": 1143, "KQT873": 1144, "KQT9": 1145, "KQT943": 1146, "KQT96": 1147, "KQT9762": 1148, "KQT985": 1149, "KT432": 1150, "KT5": 1151, "KT63": 1152, "KT7": 1153, "KT763": 1154, "KT76432": 1155, "KT8": 1156, "KT852": 1157, "KT854": 1158, "KT9": 1159, "KT96": 1160, "KT9643": 1161, "KT965": 1162, "KT983": 1163, "KW_RESP_2_6H": 1164, "MC_RESP_2C_OVER_1D": 1165, "PLACE_6NT_ACES": 1166, "Q532": 1167, "Q6542": 1168, "Q753": 1169, "Q7652": 1170, "Q832": 1171, "Q854": 1172, "Q862": 1173, "Q864": 1174, "Q9532": 1175, "Q964": 1176, "Q973": 1177, "Q984": 1178, "Q9874": 1179, "Q98763": 1180, "QJ3": 1181, "QJ42": 1182, "QJ52": 1183, "QJ72": 1184, "QJ732": 1185, "QJ754": 1186, "QJ8": 1187, "QJ86": 1188, "QJ864": 1189, "QJ943": 1190, "QJ97": 1191, "QJ9762": 1192, "QJ98": 1193, "QJ9854": 1194, "QJT32": 1195, "QJT42": 1196, "QJT54": 1197, "QJT6": 1198, "QJT65": 1199, "QJT76": 1200, "QJT762": 1201, "QJT765": 1202, "QJT82": 1203, "QJT86": 1204, "QJT87": 1205, "QJT9": 1206, "QJT92": 1207, "QJT93": 1208, "QT432": 1209, "QT53": 1210, "QT64": 1211, "QT643": 1212, "QT732": 1213, "QT74": 1214, "QT7642": 1215, "QT82": 1216, "QT873": 1217, "QT8752": 1218, "QT876": 1219, "QT9543": 1220, "QT973": 1221, "QT975": 1222, "QT976": 1223, "R_2NT_2021": 1224, "SELF_REBID_2H": 1225, "SLAM_FIT_3NT_D": 1226, "T54": 1227, "T62": 1228, "T732": 1229, "T752": 1230, "T753": 1231, "T8432": 1232, "T8542": 1233, "T8543": 1234, "T865": 1235, "T87": 1236, "T8752": 1237, "T953": 1238, "T95432": 1239, "T962": 1240, "T9742": 1241, "T976": 1242, "T983": 1243, "T987": 1244, "T9872": 1245, "T9875": 1246, "T98752": 1247, "8432": 1248, "8764": 1249, "952": 1250, "9742": 1251, "98532": 1252, "A63": 1253, "A642": 1254, "A6432": 1255, "A754": 1256, "A762": 1257, "A876": 1258, "A87632": 1259, "A943": 1260, "A972": 1261, "A9753": 1262, "A97543": 1263, "A976": 1264, "A986": 1265, "A9876": 1266, "AJ543": 1267, "AJ6432": 1268, "AJ83": 1269, "AJ85": 1270, "AJ86": 1271, "AJ86532": 1272, "AJ875": 1273, "AJ932": 1274, "AJ953": 1275, "AJT862": 1276, "AJT96": 1277, "AK432": 1278, "AK642": 1279, "AK73": 1280, "AK93": 1281, "AK95": 1282, "AK974": 1283, "AK976": 1284, "AK983": 1285, "AKJ53": 1286, "AKJ65": 1287, "AKJ85": 1288, "AKJT986": 1289, "AKQ6": 1290, "AKQ642": 1291, "AKQ73": 1292, "AKQ85": 1293, "AKQ854": 1294, "AKQ95": 1295, "AKQJ4": 1296, "AKQJ532": 1297, "AKQJ743": 1298, "AKQJ873": 1299, "AKT63": 1300, "AKT632": 1301, "AKT9864": 1302, "AQ72": 1303, "AQ832": 1304, "AQ864": 1305, "AQ875": 1306, "AQ8762": 1307, "AQ954": 1308, "AQ976": 1309, "AQ987": 1310, "AQ98753": 1311, "AQJ53": 1312, "AQJ7": 1313, "AQJ842": 1314, "AQJ85": 1315, "AQJ98": 1316, "AQJT7": 1317, "AQT76": 1318, "AQT863": 1319, "AQT876": 1320, "AT42": 1321, "AT652": 1322, "AT7542": 1323, "AT862": 1324, "AT932": 1325, "AT976": 1326, "AT9762": 1327, "J643": 1328, "J732": 1329, "J762": 1330, "J7642": 1331, "J842": 1332, "J8432": 1333, "J8542": 1334, "J8642": 1335, "J874": 1336, "J875": 1337, "J87543": 1338, "J9642": 1339, "J9863": 1340, "J9874": 1341, "J98743": 1342, "JT43": 1343, "JT62": 1344, "JT63": 1345, "JT653": 1346, "JT752": 1347, "JT753": 1348, "JT7632": 1349, "JT7654": 1350, "JT87532": 1351, "JT8763": 1352, "JT98": 1353, "JT985": 1354, "K543": 1355, "K62": 1356, "K632": 1357, "K65432": 1358, "K75432": 1359, "K763": 1360, "K832": 1361, "K854": 1362, "K865": 1363, "K872": 1364, "K9542": 1365, "K963": 1366, "K9642": 1367, "K974": 1368, "K98642": 1369, "KJ43": 1370, "KJ752": 1371, "KJ873": 1372, "KJ92": 1373, "KJ952": 1374, "KJ964": 1375, "KJ9653": 1376, "KJ97": 1377, "KJ9843": 1378, "KJT53": 1379, "KJT7": 1380, "KJT853": 1381, "KQ42": 1382, "KQ73": 1383, "KQ75": 1384, "KQ754": 1385, "KQ76": 1386, "KQ765": 1387, "KQ83": 1388, "KQ874": 1389, "KQ87542": 1390, "KQ954": 1391, "KQ984": 1392, "KQ9873": 1393, "KQJ4": 1394, "KQJ6": 1395, "KQJ87": 1396, "KQJ93": 1397, "KQJ964": 1398, "KQJT632": 1399, "KQT32": 1400, "KQT652": 1401, "KQT93": 1402, "KT42": 1403, "KT53": 1404, "KT753": 1405, "KT762": 1406, "KT863": 1407, "KT875": 1408, "KT962": 1409, "KW_RESP_0_6C": 1410, "Q7432": 1411, "Q762": 1412, "Q85": 1413, "Q8542": 1414, "Q874": 1415, "Q94": 1416, "Q9642": 1417, "Q9754": 1418, "Q986": 1419, "QJ32": 1420, "QJ4": 1421, "QJ62": 1422, "QJ642": 1423, "QJ73": 1424, "QJ752": 1425, "QJ84": 1426, "QJ93": 1427, "QJ95": 1428, "QJ9652": 1429, "QJ986532": 1430, "QJ9876": 1431, "QJT74": 1432, "QJT875": 1433, "QT754": 1434, "QT843": 1435, "QT874": 1436, "QT92": 1437, "QT9765": 1438, "SELF_REBID_3H": 1439, "T32": 1440, "T432": 1441, "T543": 1442, "T7432": 1443, "T763": 1444, "T832": 1445, "T842": 1446, "T864": 1447, "T9543": 1448, "T963": 1449, "T9632": 1450, "T964": 1451, "T9643": 1452, "T972": 1453, "T974": 1454, "T984": 1455, "T986": 1456, "T9865": 1457}