{"<pad>": 0, "<bos>": 1, "<sep>": 2, "<eot>": 3, "=": 4, ":": 5, ">": 6, "PASS": 7, "<": 8, "(": 9, ")": 10, "NORTH": 11, "S": 12, "H": 13, "AUCTION": 14, "BID": 15, "C": 16, "D": 17, "EXPLANATION": 18, "HAND": 19, "RULE": 20, "STATE": 21, "bos": 22, "dealer": 23, "eot": 24, "seat": 25, "turn": 26, "vuln": 27, "1C": 28, "3": 29, "hcp": 30, "None": 31, "'": 32, "2": 33, "1S": 34, "True": 35, "X": 36, "1": 37, "0": 38, "4": 39, "spade_len": 40, "EAST": 41, "SOUTH": 42, "3NT": 43, "WEST": 44, "8": 45, "is_competitive": 46, "heart_len": 47, "5": 48, "1H": 49, "6": 50, "-": 51, "2S": 52, ",": 53, "partner_last_call": 54, "is_opening": 55, "1D": 56, "12": 57, "2NT": 58, "COMP_1S_OVERCALL": 59, "1NT": 60, "10": 61, "is_balanced": 62, "4NT": 63, "7": 64, "[": 65, "]": 66, "in": 67, "2H": 68, "11": 69, "NO_C_WITH_MAJOR_HEA": 70, "15": 71, "9": 72, "5D": 73, "COMP_TAKEOUT_DBL": 74, "5NT": 75, "2D": 76, "21": 77, "False": 78, "4S": 79, "K": 80, "6NT": 81, "last_bid_strain": 82, "club_len": 83, "A": 84, "T": 85, "3S": 86, "5H": 87, "my_last_call": 88, "14": 89, "FW_TKO_VS_S": 90, "diamond_len": 91, "Q": 92, "R_RESP_3NT": 93, "6D": 94, "J": 95, "17": 96, "NONE": 97, "NO_C_WITH_MAJOR_SPA": 98, "82": 99, "FW_OVERCALL_1H": 100, "opp_last_call": 101, "R_1NT": 102, "13": 103, "95": 104, "52": 105, "ace_count": 106, "97": 107, "R_RESP_2S": 108, "K6": 109, "T7": 110, "T3": 111, "92": 112, "R_WEAK_2S": 113, "T8": 114, "65": 115, "A9": 116, "J6": 117, "K3": 118, "64": 119, "73": 120, "Q2": 121, "3D": 122, "42": 123, "85": 124, "K8": 125, "J4": 126, "J7": 127, "JT": 128, "KQ": 129, "Q8": 130, "96": 131, "!": 132, "QJ": 133, "R_WEAK_2H": 134, "T9": 135, "86": 136, "A2": 137, "A7": 138, "T2": 139, "75": 140, "K2": 141, "T5": 142, "98": 143, "A5": 144, "KJ": 145, "Q5": 146, "Q9": 147, "43": 148, "54": 149, "5S": 150, "74": 151, "2C": 152, "4H": 153, "5C": 154, "R_1H": 155, "R_1S": 156, "T6": 157, "32": 158, "72": 159, "76": 160, "84": 161, "J8": 162, "63": 163, "AT": 164, "COMP_BALANCING_1NT": 165, "is_balancing": 166, "A4": 167, "AK": 168, "T4": 169, "94": 170, "FW_2NT_DECLINE": 171, "K7": 172, "Q7": 173, "QT": 174, "A3": 175, "J2": 176, "K9": 177, "R_1C_balanced": 178, "J3": 179, "K94": 180, "KT": 181, "6C": 182, "6H": 183, "A6": 184, "Q4": 185, "R_1D": 186, "16": 187, "842": 188, "87": 189, "A97": 190, "K5": 191, "Q3": 192, "53": 193, "K4": 194, "Q6": 195, "QT4": 196, "A8": 197, "ASK_4NT_ACES": 198, "AQ": 199, "K96": 200, "T43": 201, "AJ": 202, "FW_2NT_FORCE_S": 203, "J9": 204, "MC_RESP_2D_OVER_1C": 205, "93": 206, "Q53": 207, "R_1C_unbalanced": 208, "T52": 209, "T98": 210, "AJ6": 211, "Q86": 212, "QJ4": 213, "83": 214, "974": 215, "AQ4": 216, "GAME_ACCEPT_4S_OVER_3S": 217, "JT3": 218, "K42": 219, "K54": 220, "T93": 221, "543": 222, "643": 223, "752": 224, "A54": 225, "A98": 226, "K74": 227, "QJ2": 228, "T72": 229, "62": 230, "A86": 231, "KJ5": 232, "Q82": 233, "T53": 234, "873": 235, "983": 236, "A43": 237, "X_RESP_2NT": 238, "642": 239, "874": 240, "A64": 241, "AK9": 242, "AKT": 243, "J5": 244, "J86": 245, "K76": 246, "K83": 247, "Q32": 248, "Q62": 249, "Q73": 250, "T83": 251, "T97": 252, "3H": 253, "542": 254, "632": 255, "843": 256, "A53": 257, "A75": 258, "A92": 259, "J92": 260, "K53": 261, "T64": 262, "T92": 263, "T95": 264, "653": 265, "743": 266, "862": 267, "A52": 268, "A83": 269, "A94": 270, "AJ7": 271, "AJ8": 272, "AJT": 273, "AK76": 274, "J43": 275, "J85": 276, "JT7": 277, "K64": 278, "K75": 279, "Q52": 280, "Q65": 281, "Q93": 282, "Q96": 283, "QJ5": 284, "R_RESP_2H": 285, "865": 286, "976": 287, "AK8": 288, "AQ2": 289, "BW_RESP_D": 290, "J52": 291, "J63": 292, "J76": 293, "J97": 294, "KJ3": 295, "KJ4": 296, "KQ9": 297, "T85": 298, "652": 299, "732": 300, "962": 301, "975": 302, "A72": 303, "A73": 304, "AK43": 305, "AQ8": 306, "AQJ5": 307, "J54": 308, "JT8": 309, "K65": 310, "K82": 311, "KQJ": 312, "Q75": 313, "Q752": 314, "QJ54": 315, "QT3": 316, "R_1C_STRONG_BAL": 317, "T42": 318, "T84": 319, "T94": 320, "765": 321, "863": 322, "963": 323, "982": 324, "984": 325, "A74": 326, "A76": 327, "AJ2": 328, "AK3": 329, "AK4": 330, "AQ73": 331, "AT6": 332, "J62": 333, "J65": 334, "J74": 335, "J75": 336, "J95": 337, "J96": 338, "KQT": 339, "Q64": 340, "Q72": 341, "Q74": 342, "QJ6": 343, "QJ9": 344, "QT7": 345, "T65": 346, "764": 347, "A82": 348, "AK6": 349, "AQ3": 350, "ASK_5NT_KINGS": 351, "FW_TKO_VS_H": 352, "J32": 353, "J53": 354, "J93": 355, "PLACE_6NT_AFTER_K_ASK": 356, "Q84": 357, "T32": 358, "T654": 359, "T74": 360, "king_count": 361, "754": 362, "943": 363, "A84": 364, "AK2": 365, "AQ5": 366, "AT5": 367, "AT7": 368, "AT9": 369, "K72": 370, "K98": 371, "KJ6": 372, "KJ7": 373, "KJ9": 374, "KQ5": 375, "KT5": 376, "Q54": 377, "QJ63": 378, "QT5": 379, "T87": 380, "852": 381, "854": 382, "875": 383, "8754": 384, "932": 385, "953": 386, "972": 387, "9842": 388, "A93": 389, "AJT8": 390, "AKJ": 391, "K97": 392, "KJT5": 393, "KT9": 394, "Q42": 395, "Q63": 396, "Q87": 397, "Q92": 398, "QJT": 399, "QT6": 400, "T86": 401, "654": 402, "763": 403, "853": 404, "872": 405, "964": 406, "986": 407, "A42": 408, "A432": 409, "A62": 410, "AK5": 411, "AKJ6": 412, "AQT": 413, "AT2": 414, "AT4": 415, "J754": 416, "J83": 417, "J87": 418, "J965": 419, "K84": 420, "K92": 421, "K93": 422, "KJ8": 423, "KJ93": 424, "KQ7": 425, "KQ82": 426, "KT3": 427, "KT6": 428, "KT96": 429, "Q95": 430, "Q983": 431, "QT32": 432, "QT8": 433, "T632": 434, "T76": 435, "532": 436, "942": 437, "A765": 438, "A862": 439, "A87": 440, "A96": 441, "A982": 442, "AJ5": 443, "AJ62": 444, "AK86": 445, "AKQ": 446, "AKQ3": 447, "AQ6": 448, "AT8": 449, "GAME_ACCEPT_3NT_OVER_2NT": 450, "J652": 451, "J84": 452, "J94": 453, "J962": 454, "J98": 455, "JT5": 456, "JT96": 457, "K43": 458, "KQ8": 459, "KT2": 460, "Q43": 461, "Q842": 462, "Q864": 463, "QT2": 464, "T432": 465, "T96": 466, "7652": 467, "9853": 468, "A872": 469, "A873": 470, "A986": 471, "AK54": 472, "AQ74": 473, "AQ76": 474, "AQ9": 475, "AT3": 476, "J64": 477, "J72": 478, "J854": 479, "JT97": 480, "K52": 481, "K63": 482, "K85": 483, "K953": 484, "KJ2": 485, "KJ52": 486, "KQ6": 487, "KQT8": 488, "KT8": 489, "Q94": 490, "QT9": 491, "SELF_REBID_3S": 492, "T875": 493, "742": 494, "7432": 495, "965": 496, "A32": 497, "A652": 498, "A842": 499, "A85": 500, "A985": 501, "AJ3": 502, "AJ53": 503, "AJ72": 504, "AK7": 505, "AK75": 506, "AKQ9": 507, "AKT8": 508, "AQ7": 509, "AQT7": 510, "FW_2NT_FORCE_H": 511, "J752": 512, "J952": 513, "JT52": 514, "K73": 515, "K87": 516, "K973": 517, "KJ73": 518, "KJ97": 519, "KQT63": 520, "KT942": 521, "KW_RESP_1_6D": 522, "Q654": 523, "Q763": 524, "Q764": 525, "Q953": 526, "Q975": 527, "QJ7": 528, "QT83": 529, "QT93": 530, "T543": 531, "T63": 532, "T742": 533, "T743": 534, "T873": 535, "T962": 536, "T982": 537, "X_LIFT_3D": 538, "432": 539, "762": 540, "876": 541, "9432": 542, "9543": 543, "A832": 544, "A95": 545, "A972": 546, "AJ32": 547, "AJ87": 548, "AK42": 549, "AKQT5": 550, "AT95": 551, "J853": 552, "J872": 553, "J974": 554, "JT43": 555, "JT84": 556, "K754": 557, "K86": 558, "K95": 559, "K965": 560, "K975": 561, "KJ32": 562, "KJ82": 563, "KQ53": 564, "KQJ4": 565, "KQJT": 566, "KT4": 567, "KT98": 568, "Q532": 569, "Q76": 570, "Q97": 571, "Q974": 572, "QJT5": 573, "QT72": 574, "QT96": 575, "R_1D_STRONG_BAL": 576, "T73": 577, "T82": 578, "T872": 579, "6543": 580, "753": 581, "832": 582, "8632": 583, "8654": 584, "8762": 585, "954": 586, "97652": 587, "9852": 588, "987": 589, "98752": 590, "A63": 591, "A984": 592, "AJ43": 593, "AKJ9": 594, "AQ62": 595, "AQ876": 596, "AQJ2": 597, "AT53": 598, "AT73": 599, "AT82": 600, "AT86": 601, "AT98": 602, "GAME_ACCEPT_4H_OVER_3H": 603, "J73": 604, "J732": 605, "J742": 606, "J876": 607, "J932": 608, "JT4": 609, "JT63": 610, "JT83": 611, "JT85": 612, "K843": 613, "K852": 614, "KJ74": 615, "KJ95": 616, "KJT6": 617, "KQ3": 618, "KQ94": 619, "KQ96": 620, "KT86": 621, "KT87": 622, "KT92": 623, "PLACE_6NT_ACES": 624, "Q843": 625, "Q873": 626, "QJ76": 627, "QJT8": 628, "QT52": 629, "QT73": 630, "QT76": 631, "QT875": 632, "QT95": 633, "T653": 634, "T75": 635, "T753": 636, "T765": 637, "T842": 638, "T9876": 639, "7654": 640, "864": 641, "9643": 642, "9764": 643, "985": 644, "98762": 645, "A542": 646, "AJ85": 647, "AJ95": 648, "AK643": 649, "AK65": 650, "AK72": 651, "AKQ962": 652, "AQ86": 653, "AQ87": 654, "AQJ": 655, "AQT94": 656, "AT32": 657, "AT83": 658, "AT92": 659, "J743": 660, "J82": 661, "J9543": 662, "J972": 663, "J976": 664, "JT2": 665, "JT65": 666, "JT73": 667, "JT94": 668, "JT98": 669, "K32": 670, "K732": 671, "K873": 672, "K875": 673, "K932": 674, "KJ54": 675, "KJ83": 676, "KJ94": 677, "KJT8": 678, "KQ62": 679, "KQ76": 680, "KQ92": 681, "KQ95": 682, "KQJ3": 683, "KQJ8": 684, "KQT3": 685, "Q652": 686, "Q85": 687, "Q865": 688, "Q962": 689, "Q965": 690, "Q98": 691, "Q984": 692, "QJ74": 693, "QJ83": 694, "QJ94": 695, "QJ97": 696, "QT87": 697, "SELF_REBID_2S": 698, "T532": 699, "T643": 700, "T863": 701, "T874": 702, "T876": 703, "T952": 704, "T983": 705, "7642": 706, "9743": 707, "9876": 708, "A654": 709, "A742": 710, "A764": 711, "A853": 712, "A987": 713, "AJ63": 714, "AJ65": 715, "AJ84": 716, "AJ9": 717, "AJ98764": 718, "AJT2": 719, "AK53": 720, "AK95": 721, "AK98": 722, "AK983": 723, "AKJ93": 724, "AKQ7": 725, "AKT63": 726, "AKT95": 727, "AQ64": 728, "AQ762": 729, "AQ83": 730, "AQ974": 731, "AQJ6": 732, "AQJ92": 733, "AQT4": 734, "AQT73": 735, "AT54": 736, "AT65": 737, "AT87": 738, "J42": 739, "J653": 740, "J863": 741, "J954": 742, "J964": 743, "J9752": 744, "JT6": 745, "JT754": 746, "K963": 747, "KJ65": 748, "KJ76": 749, "KJ86": 750, "KJ92": 751, "KJT3": 752, "KQ4": 753, "KQ54": 754, "KQ754": 755, "KQJ5": 756, "KQJ6": 757, "KT43": 758, "KT7": 759, "Q642": 760, "Q753": 761, "Q765": 762, "Q83": 763, "Q862": 764, "Q872": 765, "Q963": 766, "Q9852": 767, "QJ43": 768, "QJ93": 769, "QJ95": 770, "QT64": 771, "T62": 772, "T762": 773, "T832": 774, "T953": 775, "T984": 776, "T9854": 777, "8532": 778, "8742": 779, "87654": 780, "9532": 781, "9654": 782, "9832": 783, "9843": 784, "A543": 785, "A643": 786, "A762": 787, "A8432": 788, "A864": 789, "A865": 790, "A976": 791, "A983": 792, "AJ76": 793, "AJ98": 794, "AJT42": 795, "AJT53": 796, "AJT65": 797, "AJT9": 798, "AKJ6532": 799, "AKJ92": 800, "AKJT3": 801, "AKJT5": 802, "AKQ2": 803, "AKQ8": 804, "AKQJ": 805, "AKQJ52": 806, "AKT6": 807, "AQ85": 808, "AQ953": 809, "AQ9752": 810, "AQJ8": 811, "AQT64": 812, "AQT74": 813, "AT864": 814, "AT874": 815, "AT96": 816, "BW_RESP_C": 817, "BW_RESP_H": 818, "J643": 819, "J654": 820, "J753": 821, "J7532": 822, "J843": 823, "J873": 824, "J963": 825, "J982": 826, "J985": 827, "J9865": 828, "J9876": 829, "JT72": 830, "JT87": 831, "K653": 832, "K763": 833, "K954": 834, "K972": 835, "K974": 836, "K984": 837, "K986": 838, "KJ43": 839, "KJ654": 840, "KJ75": 841, "KJ87": 842, "KJT": 843, "KQ2": 844, "KQ43": 845, "KQ52": 846, "KQ543": 847, "KQ642": 848, "KQ85": 849, "KQ87": 850, "KQ962": 851, "KQ982": 852, "KQJ53": 853, "KQJ63": 854, "KQT2": 855, "KQT6": 856, "KQT7": 857, "KT642": 858, "KT74": 859, "KT94": 860, "Q762": 861, "Q8642": 862, "Q874": 863, "Q875": 864, "Q932": 865, "Q954": 866, "Q9543": 867, "Q9643": 868, "Q9843": 869, "QJ32": 870, "QJ52": 871, "QJ62": 872, "QJ85": 873, "QT65": 874, "QT74": 875, "QT97": 876, "QT986": 877, "SIGNOFF_5NT_NOACE": 878, "T54": 879, "T542": 880, "T732": 881, "T754": 882, "T763": 883, "T843": 884, "T86532": 885, "T9432": 886, "T965": 887, "T9842": 888, "T9843": 889, "T9853": 890, "18": 891, "6532": 892, "6542": 893, "8763": 894, "87632": 895, "8764": 896, "96532": 897, "976543": 898, "9862": 899, "A632": 900, "A753": 901, "A8632": 902, "A874": 903, "A963": 904, "A964": 905, "A9752": 906, "AJ4": 907, "AJ542": 908, "AJ6432": 909, "AJ765": 910, "AJ93": 911, "AJ983": 912, "AJT4": 913, "AJT7": 914, "AJT94": 915, "AK52": 916, "AK62": 917, "AK762": 918, "AK82": 919, "AK865": 920, "AK8653": 921, "AK87": 922, "AK872": 923, "AK94": 924, "AK952": 925, "AK963": 926, "AKJ2": 927, "AKJ4": 928, "AKJ8": 929, "AKJ83": 930, "AKQ93": 931, "AKQJ4": 932, "AKQJ6": 933, "AKQJ7": 934, "AKT52": 935, "AKT64": 936, "AKT65": 937, "AKT9": 938, "AQ32": 939, "AQ43": 940, "AQ642": 941, "AQ754": 942, "AQ84": 943, "AQ98752": 944, "AQJ84": 945, "AQJ86": 946, "AQT3": 947, "AQT6": 948, "AQT82": 949, "AT63": 950, "AT754": 951, "AT84": 952, "J543": 953, "J763": 954, "J852": 955, "J864": 956, "J8754": 957, "J983": 958, "J984": 959, "J9852": 960, "J9873": 961, "JT53": 962, "JT64": 963, "JT762": 964, "JT873": 965, "JT876": 966, "JT92": 967, "JT95": 968, "JT9863": 969, "K432": 970, "K6543": 971, "K742": 972, "K764": 973, "K942": 974, "K964": 975, "K9743": 976, "K985": 977, "KJ63": 978, "KJ64": 979, "KJ732": 980, "KJT86": 981, "KJT92": 982, "KJT93": 983, "KJT987": 984, "KQ42": 985, "KQ6542": 986, "KQ72": 987, "KQ763": 988, "KQ83": 989, "KQ86": 990, "KQ98": 991, "KQJ2": 992, "KQJ43": 993, "KQJ85": 994, "KQJ95": 995, "KQJ986": 996, "KQJT653": 997, "KQT85": 998, "KT53": 999, "KT65": 1000, "KT764": 1001, "KT932": 1002, "KT964": 1003, "MC_RESP_2C_OVER_1D": 1004, "Q432": 1005, "Q542": 1006, "Q743": 1007, "Q8763": 1008, "Q8765": 1009, "Q973": 1010, "Q982": 1011, "QJ65": 1012, "QJ72": 1013, "QJ73": 1014, "QJ732": 1015, "QJ7632": 1016, "QJ82": 1017, "QJ86": 1018, "QJ952": 1019, "QJ9754": 1020, "QJT3": 1021, "QJT6": 1022, "QJT65": 1023, "QJT9": 1024, "QT8752": 1025, "QT92": 1026, "QT94": 1027, "QT963": 1028, "T764": 1029, "T7653": 1030, "T852": 1031, "T854": 1032, "T862": 1033, "T864": 1034, "T8652": 1035, "T932": 1036, "T942": 1037, "T943": 1038, "T9643": 1039, "T972": 1040, "T975432": 1041, "T9852": 1042, "T9873": 1043, "7532": 1044, "7643": 1045, "8542": 1046, "8543": 1047, "8642": 1048, "8652": 1049, "8732": 1050, "8752": 1051, "876543": 1052, "952": 1053, "9542": 1054, "9653": 1055, "973": 1056, "9732": 1057, "9753": 1058, "9763": 1059, "97653": 1060, "9863": 1061, "98743": 1062, "A642": 1063, "A65": 1064, "A653": 1065, "A743": 1066, "A752": 1067, "A7654": 1068, "A852": 1069, "A863": 1070, "A86532": 1071, "A942": 1072, "A952": 1073, "A953": 1074, "A973": 1075, "A974": 1076, "A975": 1077, "A9872": 1078, "AJ42": 1079, "AJ64": 1080, "AJ654": 1081, "AJ75": 1082, "AJ764": 1083, "AJ82": 1084, "AJ83": 1085, "AJ874": 1086, "AJ953": 1087, "AJ97": 1088, "AJ974": 1089, "AJ982": 1090, "AK63": 1091, "AK73": 1092, "AK743": 1093, "AK852": 1094, "AK93": 1095, "AK96": 1096, "AK9864": 1097, "AKJ5": 1098, "AKJT87": 1099, "AKQ6": 1100, "AKQ84": 1101, "AKQJ74": 1102, "AKQT": 1103, "AKQT85": 1104, "AKT3": 1105, "AKT4": 1106, "AKT732": 1107, "AKT93": 1108, "AKT98": 1109, "AQ543": 1110, "AQ72": 1111, "AQ743": 1112, "AQ765": 1113, "AQ874": 1114, "AQ93": 1115, "AQ963": 1116, "AQJ63": 1117, "AQJ64": 1118, "AQJ9": 1119, "AQJ972": 1120, "AQJT6": 1121, "AQJT84": 1122, "AQT765": 1123, "AQT952": 1124, "AT74": 1125, "AT865": 1126, "AT962": 1127, "AT973": 1128, "AT985": 1129, "J432": 1130, "J632": 1131, "J7632": 1132, "J8532": 1133, "J875": 1134, "J8765": 1135, "J9432": 1136, "J9753": 1137, "J986": 1138, "JT532": 1139, "JT632": 1140, "JT642": 1141, "JT653": 1142, "JT74": 1143, "JT76": 1144, "JT86": 1145, "JT963": 1146, "JT965432": 1147, "JT975": 1148, "K62": 1149, "K642": 1150, "K654": 1151, "K752": 1152, "K762": 1153, "K765": 1154, "K8732": 1155, "K874": 1156, "K982": 1157, "K983": 1158, "KJ753": 1159, "KJ754": 1160, "KJ874": 1161, "KJ8752": 1162, "KJ965": 1163, "KJ986": 1164, "KJ9865": 1165, "KJT43": 1166, "KJT873": 1167, "KQ32": 1168, "KQ432": 1169, "KQ63": 1170, "KQ742": 1171, "KQ752": 1172, "KQ853": 1173, "KQ854": 1174, "KQ952": 1175, "KQ953": 1176, "KQ97": 1177, "KQ983": 1178, "KQ984": 1179, "KQJ65": 1180, "KQJ7": 1181, "KQJT4": 1182, "KQJT87": 1183, "KQT93": 1184, "KQT9762": 1185, "KT32": 1186, "KT63": 1187, "KT83": 1188, "KT84": 1189, "KT862": 1190, "KT863": 1191, "KT93": 1192, "KT95": 1193, "KT9543": 1194, "Q7542": 1195, "Q76432": 1196, "Q7652": 1197, "Q876": 1198, "Q943": 1199, "Q9432": 1200, "Q98742": 1201, "QJ3": 1202, "QJ543": 1203, "QJ643": 1204, "QJ832": 1205, "QJ852": 1206, "QJ87": 1207, "QJ976": 1208, "QJ983": 1209, "QJT42": 1210, "QJT54": 1211, "QJT742": 1212, "QJT763": 1213, "QJT873": 1214, "QJT96": 1215, "QT42": 1216, "QT432": 1217, "QT62": 1218, "QT742": 1219, "QT85": 1220, "QT942": 1221, "QT975": 1222, "SELF_REBID_2H": 1223, "SLAM_FIT_3NT_D": 1224, "T642": 1225, "T8432": 1226, "T865": 1227, "T8743": 1228, "T8753": 1229, "T9543": 1230, "T963": 1231, "T9632": 1232, "T964": 1233, "T974": 1234, "T9832": 1235, "T98754": 1236, "20": 1237, "22": 1238, "5432": 1239, "7542": 1240, "76532": 1241, "86542": 1242, "8743": 1243, "8753": 1244, "87643": 1245, "8765": 1246, "9642": 1247, "96542": 1248, "97532": 1249, "9762": 1250, "97642": 1251, "97654": 1252, "98532": 1253, "98732": 1254, "A7632": 1255, "A854": 1256, "A8652": 1257, "A8742": 1258, "A87532": 1259, "A8754": 1260, "A9642": 1261, "A9754": 1262, "A9765": 1263, "A9864": 1264, "A98762": 1265, "AJ432": 1266, "AJ642": 1267, "AJ6543": 1268, "AJ86": 1269, "AJ876": 1270, "AJ94": 1271, "AJ943": 1272, "AJ965": 1273, "AJ972": 1274, "AJT6": 1275, "AJT72": 1276, "AJT875": 1277, "AJT96": 1278, "AK85": 1279, "AK8542": 1280, "AK864": 1281, "AK8762": 1282, "AK964": 1283, "AK9832": 1284, "AKJ532": 1285, "AKJ7": 1286, "AKJ764": 1287, "AKJ95": 1288, "AKJ987": 1289, "AKJT982": 1290, "AKQ4": 1291, "AKQ5": 1292, "AKQ54": 1293, "AKQ63": 1294, "AKQ87": 1295, "AKQ954": 1296, "AKQJT": 1297, "AKQJT3": 1298, "AKQT9653": 1299, "AKT2": 1300, "AKT54": 1301, "AKT84": 1302, "AKT842": 1303, "AKT875": 1304, "AKT976": 1305, "AQ42": 1306, "AQ532": 1307, "AQ54": 1308, "AQ75": 1309, "AQ843": 1310, "AQ863": 1311, "AQ865": 1312, "AQ94": 1313, "AQ9432": 1314, "AQ965": 1315, "AQ984": 1316, "AQ98753": 1317, "AQJ43": 1318, "AQJ652": 1319, "AQJ8432": 1320, "AQJ85": 1321, "AQJT": 1322, "AQJT3": 1323, "AQJT87": 1324, "AQT2": 1325, "AQT432": 1326, "AQT5": 1327, "AQT8": 1328, "AQT9": 1329, "AT532": 1330, "AT62": 1331, "AT72": 1332, "AT854": 1333, "AT952": 1334, "AT9654": 1335, "AT976": 1336, "AT9762": 1337, "AT982": 1338, "AT9852": 1339, "J7542": 1340, "J7653": 1341, "J8642": 1342, "J874": 1343, "J953": 1344, "J973": 1345, "JT54": 1346, "JT6532": 1347, "JT743": 1348, "JT7432": 1349, "JT763": 1350, "JT7654": 1351, "JT853": 1352, "JT9": 1353, "JT932": 1354, "JT972": 1355, "JT974": 1356, "JT9853": 1357, "JT987": 1358, "K6542": 1359, "K7543": 1360, "K76532": 1361, "K863": 1362, "K864": 1363, "K8765": 1364, "K962": 1365, "K9642": 1366, "K9752": 1367, "K9753": 1368, "K9754": 1369, "K976": 1370, "K98764": 1371, "KJ432": 1372, "KJ543": 1373, "KJ7632": 1374, "KJ764": 1375, "KJ84": 1376, "KJ854": 1377, "KJ862": 1378, "KJ872": 1379, "KJ876": 1380, "KJ87632": 1381, "KJ9832": 1382, "KJ984": 1383, "KJT542": 1384, "KJT652": 1385, "KJT87": 1386, "KJT87532": 1387, "KJT95": 1388, "KJT984": 1389, "KQ64": 1390, "KQ65": 1391, "KQ74": 1392, "KQ75": 1393, "KQ7643": 1394, "KQ8532": 1395, "KQ872": 1396, "KQ876": 1397, "KQ8765432": 1398, "KQ9863": 1399, "KQJ764": 1400, "KQJ843": 1401, "KQJ875": 1402, "KQJ876": 1403, "KQJ954": 1404, "KQJT2": 1405, "KQJT83": 1406, "KQT73": 1407, "KQT942": 1408, "KQT976": 1409, "KQT9763": 1410, "KQT984": 1411, "KT42": 1412, "KT54": 1413, "KT64": 1414, "KT643": 1415, "KT743": 1416, "KT75": 1417, "KT754": 1418, "KT76": 1419, "KT763": 1420, "KT842": 1421, "KT852": 1422, "KT875": 1423, "KT97": 1424, "KT986": 1425, "KW_RESP_0_6C": 1426, "KW_RESP_2_6H": 1427, "Q742": 1428, "Q7653": 1429, "Q7654": 1430, "Q854": 1431, "Q8542": 1432, "Q8543": 1433, "Q85432": 1434, "Q8652": 1435, "Q952": 1436, "Q9752": 1437, "Q976": 1438, "Q9762": 1439, "Q97654": 1440, "Q9832": 1441, "Q98532": 1442, "Q986": 1443, "QJ632": 1444, "QJ75": 1445, "QJ764": 1446, "QJ8": 1447, "QJ8542": 1448, "QJ873": 1449, "QJ875": 1450, "QJ8752": 1451, "QJ87532": 1452, "QJ932": 1453, "QJ964": 1454, "QJ965": 1455, "QJ973": 1456, "QJ9852": 1457, "QJ9865": 1458, "QJ987": 1459, "QJT4": 1460, "QJT642": 1461, "QJT7": 1462, "QJT93": 1463, "QJT932": 1464, "QJT943": 1465, "QJT965": 1466, "QT652": 1467, "QT654": 1468, "QT842": 1469, "QT843": 1470, "QT852": 1471, "QT86": 1472, "QT874": 1473, "QT932": 1474, "QT98643": 1475, "QT9865": 1476, "R_OPEN_2C_STRONG": 1477, "SELF_REBID_3H": 1478, "T752": 1479, "T853": 1480, "T954": 1481, "T9642": 1482, "T96532": 1483, "T975": 1484, "T976": 1485, "T9764": 1486, "T986": 1487, "T9862": 1488, "T987": 1489, "19": 1490, "6432": 1491, "75432": 1492, "7632": 1493, "76432": 1494, "76543": 1495, "8643": 1496, "8653": 1497, "86532": 1498, "87532": 1499, "87542": 1500, "9632": 1501, "97432": 1502, "9752": 1503, "97632": 1504, "97643": 1505, "976432": 1506, "9765": 1507, "9854": 1508, "98632": 1509, "98654": 1510, "98754": 1511, "987542": 1512, "987652": 1513, "A532": 1514, "A732": 1515, "A754": 1516, "A763": 1517, "A7643": 1518, "A8532": 1519, "A8642": 1520, "A8653": 1521, "A8743": 1522, "A87432": 1523, "A875": 1524, "A8753": 1525, "A876": 1526, "A87642": 1527, "A876542": 1528, "A943": 1529, "A9432": 1530, "A962": 1531, "A9643": 1532, "A9652": 1533, "A9742": 1534, "A9842": 1535, "A98743": 1536, "AJ54": 1537, "AJ5432": 1538, "AJ632": 1539, "AJ643": 1540, "AJ74": 1541, "AJ742": 1542, "AJ832": 1543, "AJ8543": 1544, "AJ862": 1545, "AJ864": 1546, "AJ865": 1547, "AJ872": 1548, "AJ8743": 1549, "AJ8752": 1550, "AJ92": 1551, "AJ9542": 1552, "AJ962": 1553, "AJ975": 1554, "AJ9753": 1555, "AJ9864": 1556, "AJT62": 1557, "AJT64": 1558, "AJT765": 1559, "AJT865": 1560, "AJT876": 1561, "AJT942": 1562, "AJT95": 1563, "AJT983": 1564, "AK32": 1565, "AK432": 1566, "AK532": 1567, "AK652": 1568, "AK654": 1569, "AK764": 1570, "AK765": 1571, "AK83": 1572, "AK854": 1573, "AK874": 1574, "AK932": 1575, "AK942": 1576, "AK943": 1577, "AK954": 1578, "AK97": 1579, "AK9742": 1580, "AK9842": 1581, "AK9843": 1582, "AK987": 1583, "AKJ42": 1584, "AKJ54": 1585, "AKJ652": 1586, "AKJ654": 1587, "AKJ87": 1588, "AKJ873": 1589, "AKJ876": 1590, "AKJ952": 1591, "AKJT62": 1592, "AKJT9743": 1593, "AKQ43": 1594, "AKQ64": 1595, "AKQ652": 1596, "AKQ83": 1597, "AKQ863": 1598, "AKQ94": 1599, "AKQ952": 1600, "AKQ96": 1601, "AKQ985": 1602, "AKQJ5": 1603, "AKQJ83": 1604, "AKQJ862": 1605, "AKQJ95": 1606, "AKQJ96": 1607, "AKQJ97": 1608, "AKQJT93": 1609, "AKQT3": 1610, "AKQT8": 1611, "AKT42": 1612, "AKT5432": 1613, "AKT62": 1614, "AKT7543": 1615, "AKT7653": 1616, "AKT843": 1617, "AKT86": 1618, "AKT863": 1619, "AKT87": 1620, "AKT94": 1621, "AQ63": 1622, "AQ632": 1623, "AQ65": 1624, "AQ653": 1625, "AQ654": 1626, "AQ752": 1627, "AQ7643": 1628, "AQ76432": 1629, "AQ832": 1630, "AQ842": 1631, "AQ854": 1632, "AQ862": 1633, "AQ875": 1634, "AQ8762": 1635, "AQ9542": 1636, "AQ97": 1637, "AQ97543": 1638, "AQ976": 1639, "AQ97632": 1640, "AQ98": 1641, "AQ985": 1642, "AQ9852": 1643, "AQ9853": 1644, "AQ9862": 1645, "AQJ32": 1646, "AQJ52": 1647, "AQJ542": 1648, "AQJ62": 1649, "AQJ642": 1650, "AQJ65": 1651, "AQJ7": 1652, "AQJ73": 1653, "AQJ752": 1654, "AQJ94": 1655, "AQJ95": 1656, "AQJ9543": 1657, "AQJ96": 1658, "AQJ963": 1659, "AQJ98": 1660, "AQJT2": 1661, "AQJT4": 1662, "AQJT64": 1663, "AQJT75": 1664, "AQJT9": 1665, "AQT32": 1666, "AQT54": 1667, "AQT632": 1668, "AQT652": 1669, "AQT72": 1670, "AQT84": 1671, "AQT842": 1672, "AQT852": 1673, "AQT943": 1674, "AQT95": 1675, "AQT972": 1676, "AQT9743": 1677, "AT52": 1678, "AT542": 1679, "AT643": 1680, "AT654": 1681, "AT6542": 1682, "AT76": 1683, "AT7643": 1684, "AT765": 1685, "AT8742": 1686, "AT8762": 1687, "AT93": 1688, "AT932": 1689, "AT943": 1690, "AT964": 1691, "AT96432": 1692, "AT9752": 1693, "AT983": 1694, "J532": 1695, "J5432": 1696, "J6542": 1697, "J7642": 1698, "J765": 1699, "J7654": 1700, "J832": 1701, "J842": 1702, "J8432": 1703, "J8542": 1704, "J8543": 1705, "J862": 1706, "J865": 1707, "J8652": 1708, "J86542": 1709, "J8742": 1710, "J8752": 1711, "J943": 1712, "J9532": 1713, "J9632": 1714, "J96432": 1715, "J9732": 1716, "J9754": 1717, "J97543": 1718, "J97652": 1719, "J9842": 1720, "J9853": 1721, "J9854": 1722, "J98632": 1723, "J9864": 1724, "J98763": 1725, "JT32": 1726, "JT643": 1727, "JT652": 1728, "JT732": 1729, "JT753": 1730, "JT832": 1731, "JT854": 1732, "JT86432": 1733, "JT8743": 1734, "JT875": 1735, "JT8753": 1736, "JT87532": 1737, "JT9432": 1738, "JT952": 1739, "JT9542": 1740, "JT9543": 1741, "JT965": 1742, "JT9732": 1743, "JT984": 1744, "JT9842": 1745, "K532": 1746, "K542": 1747, "K743": 1748, "K753": 1749, "K7632": 1750, "K76432": 1751, "K7653": 1752, "K832": 1753, "K842": 1754, "K8532": 1755, "K8542": 1756, "K862": 1757, "K865": 1758, "K872": 1759, "K876": 1760, "K8762": 1761, "K8763": 1762, "K9532": 1763, "K9543": 1764, "K9652": 1765, "K9653": 1766, "K97542": 1767, "K9763": 1768, "K9864": 1769, "K98643": 1770, "K986432": 1771, "K9873": 1772, "KJ42": 1773, "KJ53": 1774, "KJ542": 1775, "KJ5432": 1776, "KJ62": 1777, "KJ632": 1778, "KJ72": 1779, "KJ763": 1780, "KJ843": 1781, "KJ85": 1782, "KJ853": 1783, "KJ864": 1784, "KJ865": 1785, "KJ8763": 1786, "KJ943": 1787, "KJ954": 1788, "KJ96": 1789, "KJ9743": 1790, "KJ982": 1791, "KJ987": 1792, "KJ98763": 1793, "KJT2": 1794, "KJT54": 1795, "KJT62": 1796, "KJT632": 1797, "KJT75": 1798, "KJT832": 1799, "KJT986": 1800, "KQ632": 1801, "KQ6432": 1802, "KQ653": 1803, "KQ7653": 1804, "KQ832": 1805, "KQ842": 1806, "KQ862": 1807, "KQ864": 1808, "KQ8732": 1809, "KQ8753": 1810, "KQ93": 1811, "KQ9543": 1812, "KQ964": 1813, "KQ965": 1814, "KQ972": 1815, "KQ973": 1816, "KQ9862": 1817, "KQJ42": 1818, "KQJ542": 1819, "KQJ543": 1820, "KQJ62": 1821, "KQJ64": 1822, "KQJ72": 1823, "KQJ73": 1824, "KQJ74": 1825, "KQJ83": 1826, "KQJ832": 1827, "KQJ84": 1828, "KQJ86": 1829, "KQJ865": 1830, "KQJ94": 1831, "KQJ953": 1832, "KQJ98753": 1833, "KQJ98762": 1834, "KQJT5": 1835, "KQJT632": 1836, "KQJT762": 1837, "KQT4": 1838, "KQT52": 1839, "KQT54": 1840, "KQT632": 1841, "KQT64": 1842, "KQT65": 1843, "KQT76": 1844, "KQT873": 1845, "KQT9": 1846, "KQT92": 1847, "KQT943": 1848, "KQT96": 1849, "KQT985": 1850, "KT432": 1851, "KT532": 1852, "KT542": 1853, "KT62": 1854, "KT72": 1855, "KT73": 1856, "KT752": 1857, "KT7642": 1858, "KT76432": 1859, "KT765": 1860, "KT7653": 1861, "KT854": 1862, "KT8642": 1863, "KT8654": 1864, "KT873": 1865, "KT874": 1866, "KT8754": 1867, "KT962": 1868, "KT9643": 1869, "KT965": 1870, "KT9652": 1871, "KT983": 1872, "KT985": 1873, "KT986432": 1874, "MC_REBID_3D": 1875, "Q5432": 1876, "Q643": 1877, "Q6432": 1878, "Q6542": 1879, "Q732": 1880, "Q754": 1881, "Q832": 1882, "Q853": 1883, "Q86432": 1884, "Q8742": 1885, "Q87632": 1886, "Q8764": 1887, "Q9532": 1888, "Q964": 1889, "Q9642": 1890, "Q972": 1891, "Q9742": 1892, "Q9872": 1893, "Q9874": 1894, "Q98763": 1895, "QJ42": 1896, "QJ53": 1897, "QJ532": 1898, "QJ653": 1899, "QJ754": 1900, "QJ765": 1901, "QJ842": 1902, "QJ864": 1903, "QJ8742": 1904, "QJ942": 1905, "QJ9532": 1906, "QJ9762": 1907, "QJ98": 1908, "QJ985": 1909, "QJ986532": 1910, "QJ9876": 1911, "QJT32": 1912, "QJT43": 1913, "QJT752": 1914, "QJT76": 1915, "QJT762": 1916, "QJT765": 1917, "QJT82": 1918, "QJT84": 1919, "QJT86": 1920, "QJT87": 1921, "QJT92": 1922, "QJT9876": 1923, "QT53": 1924, "QT643": 1925, "QT732": 1926, "QT75432": 1927, "QT762": 1928, "QT763": 1929, "QT7642": 1930, "QT832": 1931, "QT8542": 1932, "QT8543": 1933, "QT8643": 1934, "QT873": 1935, "QT876": 1936, "QT9543": 1937, "QT962": 1938, "QT964": 1939, "QT9652": 1940, "QT973": 1941, "QT976": 1942, "QT986543": 1943, "QT9874": 1944, "R_2NT_2021": 1945, "T7432": 1946, "T75432": 1947, "T8542": 1948, "T8543": 1949, "T8752": 1950, "T8762": 1951, "T8765": 1952, "T9542": 1953, "T9652": 1954, "T9653": 1955, "T9742": 1956, "T9743": 1957, "T97643": 1958, "T98432": 1959, "T98654": 1960, "T9872": 1961, "T9875": 1962, "T98752": 1963, "T987632": 1964, "T98764": 1965, "8432": 1966, "95432": 1967, "9742": 1968, "98543": 1969, "98643": 1970, "986432": 1971, "98763": 1972, "A6432": 1973, "A76432": 1974, "A843": 1975, "A87632": 1976, "A932": 1977, "A9542": 1978, "A9654": 1979, "A9753": 1980, "A97543": 1981, "A9763": 1982, "A9843": 1983, "A9854": 1984, "A9865": 1985, "A9876": 1986, "AJ52": 1987, "AJ543": 1988, "AJ73": 1989, "AJ743": 1990, "AJ853": 1991, "AJ8653": 1992, "AJ86532": 1993, "AJ875": 1994, "AJ8765": 1995, "AJ932": 1996, "AJT3": 1997, "AJT63": 1998, "AJT74": 1999, "AJT83": 2000, "AJT843": 2001, "AJT862": 2002, "AJT952": 2003, "AJT9542": 2004, "AJT9743": 2005, "AJT9754": 2006, "AK642": 2007, "AK742": 2008, "AK752": 2009, "AK8742": 2010, "AK876432": 2011, "AK9642": 2012, "AK974": 2013, "AK976": 2014, "AK9876": 2015, "AKJ53": 2016, "AKJ542": 2017, "AKJ65": 2018, "AKJ75": 2019, "AKJ85": 2020, "AKJ932": 2021, "AKJ9752": 2022, "AKJT73": 2023, "AKJT865": 2024, "AKJT986": 2025, "AKQ642": 2026, "AKQ73": 2027, "AKQ76": 2028, "AKQ762": 2029, "AKQ832": 2030, "AKQ85": 2031, "AKQ853": 2032, "AKQ854": 2033, "AKQ86": 2034, "AKQ862": 2035, "AKQ95": 2036, "AKQJ43": 2037, "AKQJ532": 2038, "AKQJ743": 2039, "AKQJ8": 2040, "AKQJ873": 2041, "AKQJ9432": 2042, "AKQT2": 2043, "AKQT6": 2044, "AKT632": 2045, "AKT73": 2046, "AKT873": 2047, "AKT876": 2048, "AKT954": 2049, "AKT9864": 2050, "AQ53": 2051, "AQ7542": 2052, "AQ864": 2053, "AQ932": 2054, "AQ95": 2055, "AQ954": 2056, "AQ987": 2057, "AQJ53": 2058, "AQJ653": 2059, "AQJ842": 2060, "AQJ983": 2061, "AQJT7": 2062, "AQJT96": 2063, "AQJT973": 2064, "AQT42": 2065, "AQT76": 2066, "AQT86": 2067, "AQT863": 2068, "AQT876": 2069, "AQT942": 2070, "AQT974": 2071, "AQT97654": 2072, "AT42": 2073, "AT652": 2074, "AT653": 2075, "AT743": 2076, "AT7542": 2077, "AT7543": 2078, "AT862": 2079, "AT8765": 2080, "AT9632": 2081, "AT9643": 2082, "AT965": 2083, "AT9653": 2084, "AT97": 2085, "AT9742": 2086, "AT9874": 2087, "J7432": 2088, "J762": 2089, "J764": 2090, "J7652": 2091, "J87543": 2092, "J9642": 2093, "J98532": 2094, "J9863": 2095, "J987": 2096, "J9874": 2097, "J98743": 2098, "JT62": 2099, "JT752": 2100, "JT7632": 2101, "JT87543": 2102, "JT8763": 2103, "JT953": 2104, "JT954": 2105, "JT976": 2106, "JT985": 2107, "JT9865": 2108, "K543": 2109, "K632": 2110, "K643": 2111, "K652": 2112, "K65432": 2113, "K7532": 2114, "K75432": 2115, "K8432": 2116, "K854": 2117, "K8543": 2118, "K85432": 2119, "K87652": 2120, "K9432": 2121, "K952": 2122, "K9542": 2123, "K9853": 2124, "K98642": 2125, "K9874": 2126, "KJ752": 2127, "KJ863": 2128, "KJ8643": 2129, "KJ873": 2130, "KJ8732": 2131, "KJ8754": 2132, "KJ932": 2133, "KJ942": 2134, "KJ9432": 2135, "KJ952": 2136, "KJ964": 2137, "KJ9642": 2138, "KJ9653": 2139, "KJ972": 2140, "KJ9753": 2141, "KJ98": 2142, "KJ9843": 2143, "KJT42": 2144, "KJT52": 2145, "KJT53": 2146, "KJT7": 2147, "KJT842": 2148, "KJT853": 2149, "KJT876": 2150, "KJT9": 2151, "KJT942": 2152, "KJT98": 2153, "KQ532": 2154, "KQ6543": 2155, "KQ73": 2156, "KQ765": 2157, "KQ84": 2158, "KQ843": 2159, "KQ852": 2160, "KQ863": 2161, "KQ873": 2162, "KQ874": 2163, "KQ87542": 2164, "KQ954": 2165, "KQ9643": 2166, "KQ9854": 2167, "KQ9873": 2168, "KQJ87": 2169, "KQJ872": 2170, "KQJ9": 2171, "KQJ93": 2172, "KQJ964": 2173, "KQJ976": 2174, "KQJT7": 2175, "KQT32": 2176, "KQT5": 2177, "KQT652": 2178, "KQT82": 2179, "KT753": 2180, "KT762": 2181, "KT85": 2182, "KT8542": 2183, "KT872": 2184, "KT9642": 2185, "KT9653": 2186, "KT9863": 2187, "KT9864": 2188, "KT9865": 2189, "KT9874": 2190, "Q653": 2191, "Q7432": 2192, "Q8432": 2193, "Q852": 2194, "Q8643": 2195, "Q9654": 2196, "Q9754": 2197, "Q976532": 2198, "QJ432": 2199, "QJ542": 2200, "QJ64": 2201, "QJ642": 2202, "QJ654": 2203, "QJ743": 2204, "QJ752": 2205, "QJ84": 2206, "QJ854": 2207, "QJ943": 2208, "QJ953": 2209, "QJ963": 2210, "QJ9652": 2211, "QJ9764": 2212, "QJ9854": 2213, "QJ98753": 2214, "QJT2": 2215, "QJT52": 2216, "QJT74": 2217, "QJT842": 2218, "QJT854": 2219, "QJT875": 2220, "QJT9853": 2221, "QT63": 2222, "QT743": 2223, "QT754": 2224, "QT82": 2225, "QT8732": 2226, "QT952": 2227, "QT953": 2228, "QT9765": 2229, "QT98": 2230, "QT9852": 2231, "QT9875": 2232, "R_4H": 2233, "T6432": 2234, "T8643": 2235, "T8754": 2236, "T8764": 2237, "T95432": 2238, "T9732": 2239, "T9865": 2240}